<?xml version="1.0"?>
<opencv_storage>
<cascade>
  <stageType>BOOST</stageType>
  <featureType>LBP</featureType>
  <height>48</height>
  <width>32</width>
  <stageParams>
    <boostType>GAB</boostType>
    <minHitRate>9.9500000476837158e-001</minHitRate>
    <maxFalseAlarm>5.0000000000000000e-001</maxFalseAlarm>
    <weightTrimRate>9.4999999999999996e-001</weightTrimRate>
    <maxDepth>1</maxDepth>
    <maxWeakCount>100</maxWeakCount></stageParams>
  <featureParams>
    <maxCatCount>256</maxCatCount>
    <featSize>1</featSize></featureParams>
  <stageNum>18</stageNum>
  <stages>
    <!-- stage 0 -->
    <_>
      <maxWeakCount>3</maxWeakCount>
      <stageThreshold>-1.0514799356460571e+000</stageThreshold>
      <weakClassifiers>
        <_>
          <internalNodes>
            0 -1 13 -257 -2631089 2039206135 -547884705 2023455487
            871096923 -108274693 2147482623</internalNodes>
          <leafValues>
            -9.0671449899673462e-001 7.7582067251205444e-001</leafValues></_>
        <_>
          <internalNodes>
            0 -1 2 -208670737 -136318529 1763164511 -20522049 -769932289
            -1415847213 -229639809 -135790601</internalNodes>
          <leafValues>
            -8.3660769462585449e-001 7.5500959157943726e-001</leafValues></_>
        <_>
          <internalNodes>
            0 -1 54 -2097229 -407905973 -112986216 -1065418850
            -1043377935 -1950629729 -879232649 -956302337</internalNodes>
          <leafValues>
            -8.7375187873840332e-001 6.9184225797653198e-001</leafValues></_></weakClassifiers></_>
    <!-- stage 1 -->
    <_>
      <maxWeakCount>3</maxWeakCount>
      <stageThreshold>-1.1266446113586426e+000</stageThreshold>
      <weakClassifiers>
        <_>
          <internalNodes>
            0 -1 9 -607125633 -16524993 1369034959 -63729421 -114332067
            2004869179 -405834891 -1</internalNodes>
          <leafValues>
            -8.4874808788299561e-001 6.9267898797988892e-001</leafValues></_>
        <_>
          <internalNodes>
            0 -1 42 -2106539 -8668193 -251405826 -18893473 -341049350
            -367286117 -207889160 -520093761</internalNodes>
          <leafValues>
            -8.6037451028823853e-001 6.4650046825408936e-001</leafValues></_>
        <_>
          <internalNodes>
            0 -1 61 -295766033 122929351 -788401187 207613439
            -2012679937 1536016591 -2108722181 1610608639</internalNodes>
          <leafValues>
            -8.9570558071136475e-001 5.8247798681259155e-001</leafValues></_></weakClassifiers></_>
    <!-- stage 2 -->
    <_>
      <maxWeakCount>2</maxWeakCount>
      <stageThreshold>-3.7027320265769958e-001</stageThreshold>
      <weakClassifiers>
        <_>
          <internalNodes>
            0 -1 50 -1342177281 802093855 -780955173 -1076374181
            -40900097 1072610007 -72389153 -1057025</internalNodes>
          <leafValues>
            -8.5448575019836426e-001 5.5539357662200928e-001</leafValues></_>
        <_>
          <internalNodes>
            0 -1 72 -2049 -541072753 -750545666 -6368506 -246682884
            -72105334 -209662228 -118423564</internalNodes>
          <leafValues>
            -9.2566680908203125e-001 4.9513128399848938e-001</leafValues></_></weakClassifiers></_>
    <!-- stage 3 -->
    <_>
      <maxWeakCount>3</maxWeakCount>
      <stageThreshold>-1.0777933597564697e+000</stageThreshold>
      <weakClassifiers>
        <_>
          <internalNodes>
            0 -1 41 -11537569 -72362521 -938222179 -2623137 -1021710386
            -3290745 -1176765697 -184549377</internalNodes>
          <leafValues>
            -7.7924048900604248e-001 6.0326528549194336e-001</leafValues></_>
        <_>
          <internalNodes>
            0 -1 20 -2097281 -18615297 -754590241 -87698981 2066698111
            2047492236 1779130367 -33949</internalNodes>
          <leafValues>
            -8.1334429979324341e-001 5.7209092378616333e-001</leafValues></_>
        <_>
          <internalNodes>
            0 -1 0 -1 -270534753 -787228321 -83888197 -372249169
            -74743413 -822351112 1979577844</internalNodes>
          <leafValues>
            -8.6797744035720825e-001 5.1479142904281616e-001</leafValues></_></weakClassifiers></_>
    <!-- stage 4 -->
    <_>
      <maxWeakCount>4</maxWeakCount>
      <stageThreshold>-5.7673996686935425e-001</stageThreshold>
      <weakClassifiers>
        <_>
          <internalNodes>
            0 -1 10 -44565641 -251273369 1342298327 -750661541
            -1031050645 -1106517285 1799847007 -1</internalNodes>
          <leafValues>
            -7.5546717643737793e-001 6.0606062412261963e-001</leafValues></_>
        <_>
          <internalNodes>
            0 -1 23 -10485933 2147341199 -854113161 -8957545 2106448575
            2037467469 -610559585 2143157147</internalNodes>
          <leafValues>
            -8.3760434389114380e-001 5.1572155952453613e-001</leafValues></_>
        <_>
          <internalNodes>
            0 -1 7 -15867940 -11021409 -771385886 -287848509 -209089845
            -1144379253 -628363373 1879007199</internalNodes>
          <leafValues>
            -9.0170031785964966e-001 4.5354685187339783e-001</leafValues></_>
        <_>
          <internalNodes>
            0 -1 57 -10489461 -1831865361 1368742899 -494219002 -3423745
            -880049405 -41157197 -603981826</internalNodes>
          <leafValues>
            -6.7947196960449219e-001 5.6470602750778198e-001</leafValues></_></weakClassifiers></_>
    <!-- stage 5 -->
    <_>
      <maxWeakCount>4</maxWeakCount>
      <stageThreshold>-6.9652646780014038e-001</stageThreshold>
      <weakClassifiers>
        <_>
          <internalNodes>
            0 -1 35 -3157228 -1469961 1006737692 -14976541 -653550598
            -81802309 -893124612 -188743745</internalNodes>
          <leafValues>
            -8.8861078023910522e-001 3.8701623678207397e-001</leafValues></_>
        <_>
          <internalNodes>
            0 -1 17 -2137329665 -539045220 -905788161 -589531905
            -924192517 -1198602085 -84152353 -143130633</internalNodes>
          <leafValues>
            -8.0983418226242065e-001 4.1421940922737122e-001</leafValues></_>
        <_>
          <internalNodes>
            0 -1 5 -536870913 -692392005 -670671660 -7421473 -8259153
            -124141407 -41550855 -655408</internalNodes>
          <leafValues>
            -6.6085827350616455e-001 6.0286325216293335e-001</leafValues></_>
        <_>
          <internalNodes>
            0 -1 69 -1307643137 -1076954421 -712781373 -1342799141
            957091839 722649129 -79039757 -1074331669</internalNodes>
          <leafValues>
            -7.9990524053573608e-001 4.3872317671775818e-001</leafValues></_></weakClassifiers></_>
    <!-- stage 6 -->
    <_>
      <maxWeakCount>4</maxWeakCount>
      <stageThreshold>-9.6475088596343994e-001</stageThreshold>
      <weakClassifiers>
        <_>
          <internalNodes>
            0 -1 66 -67110913 -12613185 -1828326402 -15469792
            -1347571203 -123625319 -375616528 -160372252</internalNodes>
          <leafValues>
            -8.1887757778167725e-001 2.9656863212585449e-001</leafValues></_>
        <_>
          <internalNodes>
            0 -1 56 -12094197 -8160365 1477030687 1146241311 -73405177
            -284978677 -80217133 -1064307218</internalNodes>
          <leafValues>
            -8.2918220758438110e-001 3.5160222649574280e-001</leafValues></_>
        <_>
          <internalNodes>
            0 -1 8 2063216383 -254426685 -1048473573 -103595061
            1712022206 -888960986 -636794625 2146402133</internalNodes>
          <leafValues>
            -8.6626899242401123e-001 3.6124253273010254e-001</leafValues></_>
        <_>
          <internalNodes>
            0 -1 34 500786003 823202203 -1852833379 1063228823
            2030168061 2141300874 -812021573 -394353</internalNodes>
          <leafValues>
            -7.4665272235870361e-001 4.3064427375793457e-001</leafValues></_></weakClassifiers></_>
    <!-- stage 7 -->
    <_>
      <maxWeakCount>4</maxWeakCount>
      <stageThreshold>-1.7553434371948242e+000</stageThreshold>
      <weakClassifiers>
        <_>
          <internalNodes>
            0 -1 48 -622070187 -15395823 -1586932935 -1089674494
            -288839440 -12449247 -921043440 -29891582</internalNodes>
          <leafValues>
            -7.3083287477493286e-001 3.7851476669311523e-001</leafValues></_>
        <_>
          <internalNodes>
            0 -1 21 -68157777 -824192557 -662250274 -54603043 -666635401
            -78707627 -518262156 -136315921</internalNodes>
          <leafValues>
            -7.7037000656127930e-001 4.0439578890800476e-001</leafValues></_>
        <_>
          <internalNodes>
            0 -1 78 -640090113 -620047985 -805055590 -1782082729
            -849871125 -1333538493 -879495521 1993143902</internalNodes>
          <leafValues>
            -7.0078307390213013e-001 4.3078878521919250e-001</leafValues></_>
        <_>
          <internalNodes>
            0 -1 65 -472391757 -2099265185 872612137 1115592083
            -1475091065 187359891 -737361776 -687877185</internalNodes>
          <leafValues>
            -7.2812324762344360e-001 4.4257584214210510e-001</leafValues></_></weakClassifiers></_>
    <!-- stage 8 -->
    <_>
      <maxWeakCount>5</maxWeakCount>
      <stageThreshold>-1.1733694076538086e+000</stageThreshold>
      <weakClassifiers>
        <_>
          <internalNodes>
            0 -1 26 -203423745 -15208233 -1072348707 -234892833
            -66092169 -112498173 -68175823 -722188</internalNodes>
          <leafValues>
            -6.8888890743255615e-001 3.4760147333145142e-001</leafValues></_>
        <_>
          <internalNodes>
            0 -1 16 -1317965 -1820094391 -614346345 -1694400427
            2051678105 -70769223 -1362428936 -16037244</internalNodes>
          <leafValues>
            -5.5743372440338135e-001 5.7226872444152832e-001</leafValues></_>
        <_>
          <internalNodes>
            0 -1 67 -76547073 -16579681 -668961441 -4254818 -861148739
            -643088210 -1163330568 -96413072</internalNodes>
          <leafValues>
            -7.4892365932464600e-001 4.3169102072715759e-001</leafValues></_>
        <_>
          <internalNodes>
            0 -1 60 -984288307 664129862 -234663435 661115227 4515356
            1434686080 1536916414 -2491905</internalNodes>
          <leafValues>
            -7.0783072710037231e-001 4.2556303739547729e-001</leafValues></_>
        <_>
          <internalNodes>
            0 -1 14 -606635707 -707268201 22246203 -1879006837
            1569290717 1352700033 -103991111 2106845649</internalNodes>
          <leafValues>
            -7.5134807825088501e-001 4.0000516176223755e-001</leafValues></_></weakClassifiers></_>
    <!-- stage 9 -->
    <_>
      <maxWeakCount>5</maxWeakCount>
      <stageThreshold>-1.2767533063888550e+000</stageThreshold>
      <weakClassifiers>
        <_>
          <internalNodes>
            0 -1 22 -50855937 -677392261 2013585631 -45615137 -85984393
            -758407025 -540573711 -197996</internalNodes>
          <leafValues>
            -6.5053486824035645e-001 3.8561034202575684e-001</leafValues></_>
        <_>
          <internalNodes>
            0 -1 68 -1680343041 -1546554538 318820627 -1890012833
            -1849591393 2047394313 -787743749 2004811758</internalNodes>
          <leafValues>
            -7.0467650890350342e-001 4.0597477555274963e-001</leafValues></_>
        <_>
          <internalNodes>
            0 -1 15 -68175119 -7369565 -989801377 -284000241 1325419769
            2072692906 -846681605 2143420073</internalNodes>
          <leafValues>
            -7.9290235042572021e-001 3.3999338746070862e-001</leafValues></_>
        <_>
          <internalNodes>
            0 -1 55 -407378641 -410267124 -803651580 -473212863
            -1827945709 -460651775 -410533592 -1044906659</internalNodes>
          <leafValues>
            -5.6950372457504272e-001 5.1333701610565186e-001</leafValues></_>
        <_>
          <internalNodes>
            0 -1 74 -539134056 -347692629 -1845259245 800788650
            -670318101 -687618025 -615918685 754778108</internalNodes>
          <leafValues>
            -8.0268281698226929e-001 3.5348200798034668e-001</leafValues></_></weakClassifiers></_>
    <!-- stage 10 -->
    <_>
      <maxWeakCount>5</maxWeakCount>
      <stageThreshold>-1.1797385215759277e+000</stageThreshold>
      <weakClassifiers>
        <_>
          <internalNodes>
            0 -1 40 -654059179 1395986718 1359173919 999002632
            -1602160924 -73913728 -2128576256 -97271133</internalNodes>
          <leafValues>
            -7.2290503978729248e-001 3.5035461187362671e-001</leafValues></_>
        <_>
          <internalNodes>
            0 -1 64 -683149329 -1395663503 318817117 -118560292
            -216812608 -859026999 -342904345 -738201093</internalNodes>
          <leafValues>
            -6.3441061973571777e-001 4.7647002339363098e-001</leafValues></_>
        <_>
          <internalNodes>
            0 -1 18 -2368515 -251572221 -519878195 1510105211 1086544335
            -1862130933 1040400523 1006600181</internalNodes>
          <leafValues>
            -7.0763856172561646e-001 3.8051792979240417e-001</leafValues></_>
        <_>
          <internalNodes>
            0 -1 63 -471339614 -1001401360 1695645840 -502874103
            -1153331582 1074397697 -1337576958 -977800407</internalNodes>
          <leafValues>
            -5.6123811006546021e-001 5.1759350299835205e-001</leafValues></_>
        <_>
          <internalNodes>
            0 -1 27 -1898984705 -738017065 -1069522341 -762862391
            -193223886 184975379 -204201936 -76223372</internalNodes>
          <leafValues>
            -7.2053420543670654e-001 4.0685993432998657e-001</leafValues></_></weakClassifiers></_>
    <!-- stage 11 -->
    <_>
      <maxWeakCount>5</maxWeakCount>
      <stageThreshold>-1.3066847324371338e+000</stageThreshold>
      <weakClassifiers>
        <_>
          <internalNodes>
            0 -1 49 -115090667 -681639791 151589307 -1084370913
            -795305452 -1627357183 -1073103792 -301473005</internalNodes>
          <leafValues>
            -6.9472503662109375e-001 3.0888575315475464e-001</leafValues></_>
        <_>
          <internalNodes>
            0 -1 32 1665373088 -686653226 -1862270787 -1613033197
            -2125356310 -1113519813 1778645691 -1598097238</internalNodes>
          <leafValues>
            -6.9590151309967041e-001 3.6141738295555115e-001</leafValues></_>
        <_>
          <internalNodes>
            0 -1 19 -1337475089 -669781625 17417215 -178682465
            -942940107 -384071541 -654229388 -75497604</internalNodes>
          <leafValues>
            -6.5246528387069702e-001 4.1407522559165955e-001</leafValues></_>
        <_>
          <internalNodes>
            0 -1 28 -779117574 -917471231 1073857618 -729632694
            -795948465 -1169782742 1619649063 1434710207</internalNodes>
          <leafValues>
            -6.4668655395507813e-001 4.3046575784683228e-001</leafValues></_>
        <_>
          <internalNodes>
            0 -1 77 -740559913 1392755477 65560 -251416446 -1056845175
            -1669283840 -241308816 -76219396</internalNodes>
          <leafValues>
            -7.4124997854232788e-001 3.7948286533355713e-001</leafValues></_></weakClassifiers></_>
    <!-- stage 12 -->
    <_>
      <maxWeakCount>4</maxWeakCount>
      <stageThreshold>-7.7904510498046875e-001</stageThreshold>
      <weakClassifiers>
        <_>
          <internalNodes>
            0 -1 3 -757603329 -771533673 -2004823665 -1046871870
            -120852241 -934772728 1238092091 2143245821</internalNodes>
          <leafValues>
            -7.0722889900207520e-001 2.4285714328289032e-001</leafValues></_>
        <_>
          <internalNodes>
            0 -1 75 -1712392225 -1958121071 -520007673 -1660694518
            -1056259681 -1995948029 -515190573 39823582</internalNodes>
          <leafValues>
            -7.4109554290771484e-001 3.1887733936309814e-001</leafValues></_>
        <_>
          <internalNodes>
            0 -1 39 1896583440 -547815407 419664152 -1685122798
            -1744246704 -72318848 -1291280128 -94123469</internalNodes>
          <leafValues>
            -6.9866299629211426e-001 3.7193289399147034e-001</leafValues></_>
        <_>
          <internalNodes>
            0 -1 62 -506736699 1665391083 -1769352675 -497450697
            -1069301597 1183500512 -488900064 -531105117</internalNodes>
          <leafValues>
            -6.4211660623550415e-001 4.5125120878219604e-001</leafValues></_></weakClassifiers></_>
    <!-- stage 13 -->
    <_>
      <maxWeakCount>5</maxWeakCount>
      <stageThreshold>-1.3525505065917969e+000</stageThreshold>
      <weakClassifiers>
        <_>
          <internalNodes>
            0 -1 44 1356570815 -1657208815 -1593731113 -167919473
            16812777 -74743671 -1728026485 -75382133</internalNodes>
          <leafValues>
            -5.7110810279846191e-001 4.8712667822837830e-001</leafValues></_>
        <_>
          <internalNodes>
            0 -1 46 -1719430320 318963718 16843035 520159553 713074160
            -83361791 193143673 -736887937</internalNodes>
          <leafValues>
            -7.5125825405120850e-001 3.3735275268554688e-001</leafValues></_>
        <_>
          <internalNodes>
            0 -1 4 -2136549938 362283024 16908317 470681882 -2138337137
            -1941274494 405317887 1744296307</internalNodes>
          <leafValues>
            -7.6285046339035034e-001 3.1622326374053955e-001</leafValues></_>
        <_>
          <internalNodes>
            0 -1 6 -677391905 -132579169 -2129911725 -224669555
            -1866341891 -368345047 -796032015 -82545968</internalNodes>
          <leafValues>
            -6.7939049005508423e-001 4.0681886672973633e-001</leafValues></_>
        <_>
          <internalNodes>
            0 -1 76 -1147863585 -1888235520 -707671781 -2024435436
            -905845862 -800976767 134922922 256675976</internalNodes>
          <leafValues>
            -8.2275694608688354e-001 3.3298310637474060e-001</leafValues></_></weakClassifiers></_>
    <!-- stage 14 -->
    <_>
      <maxWeakCount>5</maxWeakCount>
      <stageThreshold>-8.9141088724136353e-001</stageThreshold>
      <weakClassifiers>
        <_>
          <internalNodes>
            0 -1 25 1392943866 -573341423 16842911 -216465313
            -2111256354 -225836899 -2101114342 1191690959</internalNodes>
          <leafValues>
            -6.4971160888671875e-001 3.3952048420906067e-001</leafValues></_>
        <_>
          <internalNodes>
            0 -1 38 -172793808 -1113769833 -1056816299 -1182777071
            -1307894320 -73777023 721705418 -77640572</internalNodes>
          <leafValues>
            -6.8523043394088745e-001 3.6481565237045288e-001</leafValues></_>
        <_>
          <internalNodes>
            0 -1 29 -202386465 -694434405 404365725 1598655691 -70523577
            -570277843 -745571596 -3543071</internalNodes>
          <leafValues>
            -5.2440744638442993e-001 5.3559690713882446e-001</leafValues></_>
        <_>
          <internalNodes>
            0 -1 47 -1019178660 -784203312 201326835 420020307
            -2111733320 -1996275373 -343471318 -2126775493</internalNodes>
          <leafValues>
            -4.5642662048339844e-001 6.1120748519897461e-001</leafValues></_>
        <_>
          <internalNodes>
            0 -1 31 -741547921 1223018635 -1073676226 -85326685
            -1031587721 1109557766 -1067655066 -239933698</internalNodes>
          <leafValues>
            -6.1491292715072632e-001 4.6780306100845337e-001</leafValues></_></weakClassifiers></_>
    <!-- stage 15 -->
    <_>
      <maxWeakCount>6</maxWeakCount>
      <stageThreshold>-9.6345168352127075e-001</stageThreshold>
      <weakClassifiers>
        <_>
          <internalNodes>
            0 -1 45 608292979 962347857 -669988261 -581988259 906535617
            -8191488 539509483 -7534428</internalNodes>
          <leafValues>
            -6.2894058227539063e-001 3.2964426279067993e-001</leafValues></_>
        <_>
          <internalNodes>
            0 -1 11 -771753993 -607272245 -1610095361 -250493797
            -926249547 -1183801256 -1441356493 -71552496</internalNodes>
          <leafValues>
            -5.4455810785293579e-001 4.5330598950386047e-001</leafValues></_>
        <_>
          <internalNodes>
            0 -1 53 -415105576 -473328871 -1876930096 537383491
            -503209227 16982272 -351876960 1326447563</internalNodes>
          <leafValues>
            -7.8021347522735596e-001 3.2931956648826599e-001</leafValues></_>
        <_>
          <internalNodes>
            0 -1 73 -784600645 -209354351 16892341 -581324640 -651648552
            -654081888 -2096680944 -176127344</internalNodes>
          <leafValues>
            -7.1183115243911743e-001 4.0483132004737854e-001</leafValues></_>
        <_>
          <internalNodes>
            0 -1 12 1392862777 -670891951 33612117 -1006399463
            -649307137 243826688 1619518203 803172417</internalNodes>
          <leafValues>
            -8.2077670097351074e-001 3.1676766276359558e-001</leafValues></_>
        <_>
          <internalNodes>
            0 -1 36 -2093872848 -712175093 352355357 -1114693613
            -1576025413 -1079410552 -2004219507 -1462894553</internalNodes>
          <leafValues>
            -5.4311364889144897e-001 5.2256786823272705e-001</leafValues></_></weakClassifiers></_>
    <!-- stage 16 -->
    <_>
      <maxWeakCount>7</maxWeakCount>
      <stageThreshold>-1.1493420600891113e+000</stageThreshold>
      <weakClassifiers>
        <_>
          <internalNodes>
            0 -1 52 -652885701 1124569988 138412971 -888713214
            1099497579 1832910883 25411660 -179308741</internalNodes>
          <leafValues>
            -5.7318741083145142e-001 4.5382323861122131e-001</leafValues></_>
        <_>
          <internalNodes>
            0 -1 33 -47721069 -717074158 38013732 -1861976064 -936865689
            -2146695136 98995 1094964399</internalNodes>
          <leafValues>
            -5.4891175031661987e-001 4.6712055802345276e-001</leafValues></_>
        <_>
          <internalNodes>
            0 -1 1 -1038957569 1359577091 53471 -1324640246 -930447217
            -662667130 193513676 1371635940</internalNodes>
          <leafValues>
            -7.4430012702941895e-001 3.2831880450248718e-001</leafValues></_>
        <_>
          <internalNodes>
            0 -1 59 -788441003 1033052953 -1073674056 1427964160
            -377454592 -1333673784 -1434425168 -217890560</internalNodes>
          <leafValues>
            -6.0412693023681641e-001 4.6979081630706787e-001</leafValues></_>
        <_>
          <internalNodes>
            0 -1 71 -1861767977 -1067657280 -518815715 1256092825
            268508091 1872340355 -1857449815 -930681117</internalNodes>
          <leafValues>
            -6.3732850551605225e-001 3.8773423433303833e-001</leafValues></_>
        <_>
          <internalNodes>
            0 -1 24 -96241997 -251428736 1309671505 553844864 27345280
            -108494336 -2001131351 -1182071640</internalNodes>
          <leafValues>
            -5.9694451093673706e-001 4.9205774068832397e-001</leafValues></_>
        <_>
          <internalNodes>
            0 -1 37 -372801150 1695121488 1073790994 -326179711
            -507346850 1090748932 -1048447799 1875762151</internalNodes>
          <leafValues>
            -5.7053393125534058e-001 5.2036893367767334e-001</leafValues></_></weakClassifiers></_>
    <!-- stage 17 -->
    <_>
      <maxWeakCount>5</maxWeakCount>
      <stageThreshold>-1.0223816633224487e+000</stageThreshold>
      <weakClassifiers>
        <_>
          <internalNodes>
            0 -1 58 -775167166 1091149953 1074266114 -632913791
            -1878318464 35651714 -989216382 -146292317</internalNodes>
          <leafValues>
            -5.9927636384963989e-001 5.3083920478820801e-001</leafValues></_>
        <_>
          <internalNodes>
            0 -1 51 -17035704 -18169924 -426019 -11 -536944667 -19530122
            -319442978 734734082</internalNodes>
          <leafValues>
            -5.1808774471282959e-001 5.5207002162933350e-001</leafValues></_>
        <_>
          <internalNodes>
            0 -1 30 -1043949421 1212416 1073807632 1610645568
            -2146859005 -1610088416 -2147254202 1393013387</internalNodes>
          <leafValues>
            -6.7570406198501587e-001 4.6225872635841370e-001</leafValues></_>
        <_>
          <internalNodes>
            0 -1 70 -788377136 -2130444283 16789504 -1723628543
            -1031761908 -2129395712 -1023385088 260752313</internalNodes>
          <leafValues>
            -7.5793021917343140e-001 3.7849527597427368e-001</leafValues></_>
        <_>
          <internalNodes>
            0 -1 43 -804229115 -586026996 123012 -2112798652 276850688
            494927873 -1719631142 1703512104</internalNodes>
          <leafValues>
            -6.7083328962326050e-001 4.5845893025398254e-001</leafValues></_></weakClassifiers></_></stages>
  <features>
    <_>
      <rect>
        0 0 3 4</rect></_>
    <_>
      <rect>
        0 0 4 3</rect></_>
    <_>
      <rect>
        0 0 7 9</rect></_>
    <_>
      <rect>
        0 1 2 6</rect></_>
    <_>
      <rect>
        0 1 7 7</rect></_>
    <_>
      <rect>
        0 4 1 2</rect></_>
    <_>
      <rect>
        0 6 1 2</rect></_>
    <_>
      <rect>
        0 6 9 14</rect></_>
    <_>
      <rect>
        0 10 1 9</rect></_>
    <_>
      <rect>
        0 15 4 8</rect></_>
    <_>
      <rect>
        0 15 4 11</rect></_>
    <_>
      <rect>
        0 17 1 2</rect></_>
    <_>
      <rect>
        0 21 2 9</rect></_>
    <_>
      <rect>
        0 24 10 8</rect></_>
    <_>
      <rect>
        0 26 3 7</rect></_>
    <_>
      <rect>
        0 33 9 5</rect></_>
    <_>
      <rect>
        0 39 8 3</rect></_>
    <_>
      <rect>
        1 0 6 9</rect></_>
    <_>
      <rect>
        1 1 1 10</rect></_>
    <_>
      <rect>
        1 15 2 6</rect></_>
    <_>
      <rect>
        1 27 6 7</rect></_>
    <_>
      <rect>
        2 18 3 4</rect></_>
    <_>
      <rect>
        2 21 1 3</rect></_>
    <_>
      <rect>
        2 36 10 4</rect></_>
    <_>
      <rect>
        2 42 7 2</rect></_>
    <_>
      <rect>
        3 0 8 3</rect></_>
    <_>
      <rect>
        3 21 1 2</rect></_>
    <_>
      <rect>
        4 16 1 3</rect></_>
    <_>
      <rect>
        4 17 3 7</rect></_>
    <_>
      <rect>
        4 24 1 3</rect></_>
    <_>
      <rect>
        6 15 2 5</rect></_>
    <_>
      <rect>
        6 23 2 4</rect></_>
    <_>
      <rect>
        7 0 8 5</rect></_>
    <_>
      <rect>
        7 12 2 7</rect></_>
    <_>
      <rect>
        7 39 8 3</rect></_>
    <_>
      <rect>
        8 0 8 9</rect></_>
    <_>
      <rect>
        9 0 3 2</rect></_>
    <_>
      <rect>
        9 22 4 6</rect></_>
    <_>
      <rect>
        9 42 2 2</rect></_>
    <_>
      <rect>
        10 0 7 1</rect></_>
    <_>
      <rect>
        11 0 7 1</rect></_>
    <_>
      <rect>
        11 0 7 9</rect></_>
    <_>
      <rect>
        11 3 7 7</rect></_>
    <_>
      <rect>
        11 21 4 6</rect></_>
    <_>
      <rect>
        11 42 7 2</rect></_>
    <_>
      <rect>
        11 44 4 1</rect></_>
    <_>
      <rect>
        13 0 6 8</rect></_>
    <_>
      <rect>
        13 3 5 4</rect></_>
    <_>
      <rect>
        14 0 5 1</rect></_>
    <_>
      <rect>
        14 1 6 1</rect></_>
    <_>
      <rect>
        14 30 6 6</rect></_>
    <_>
      <rect>
        15 3 2 3</rect></_>
    <_>
      <rect>
        17 12 2 9</rect></_>
    <_>
      <rect>
        17 13 4 10</rect></_>
    <_>
      <rect>
        17 14 5 7</rect></_>
    <_>
      <rect>
        17 21 2 5</rect></_>
    <_>
      <rect>
        19 1 4 12</rect></_>
    <_>
      <rect>
        19 10 4 8</rect></_>
    <_>
      <rect>
        19 19 1 3</rect></_>
    <_>
      <rect>
        20 0 2 1</rect></_>
    <_>
      <rect>
        20 15 4 11</rect></_>
    <_>
      <rect>
        20 18 4 9</rect></_>
    <_>
      <rect>
        20 23 2 4</rect></_>
    <_>
      <rect>
        20 24 1 4</rect></_>
    <_>
      <rect>
        22 18 2 4</rect></_>
    <_>
      <rect>
        22 20 2 4</rect></_>
    <_>
      <rect>
        23 0 3 2</rect></_>
    <_>
      <rect>
        23 0 3 3</rect></_>
    <_>
      <rect>
        23 14 3 8</rect></_>
    <_>
      <rect>
        23 26 3 7</rect></_>
    <_>
      <rect>
        24 5 2 12</rect></_>
    <_>
      <rect>
        24 24 1 2</rect></_>
    <_>
      <rect>
        25 0 2 4</rect></_>
    <_>
      <rect>
        25 1 2 2</rect></_>
    <_>
      <rect>
        26 10 2 7</rect></_>
    <_>
      <rect>
        26 20 2 8</rect></_>
    <_>
      <rect>
        26 24 1 5</rect></_>
    <_>
      <rect>
        28 1 1 5</rect></_>
    <_>
      <rect>
        29 7 1 6</rect></_></features></cascade>
</opencv_storage>
